-5.252722729417372838e-01
5.451824328828658306e-02
0.000000000000000000e+00
-1.058813500985897882e-01
0.000000000000000000e+00
5.348377764003388046e-01
0.000000000000000000e+00
-5.003923016561229176e-02
1.500317852439803090e-02
0.000000000000000000e+00
0.000000000000000000e+00
0.000000000000000000e+00
2.673771638501805104e-01
0.000000000000000000e+00
0.000000000000000000e+00
-1.836445544394360585e-02
-4.891214688365030927e-02
0.000000000000000000e+00
2.028268047949299824e-01
0.000000000000000000e+00
0.000000000000000000e+00
-5.376521069348778603e-01
-4.010705518040690865e-01
0.000000000000000000e+00
0.000000000000000000e+00
0.000000000000000000e+00
-5.019295851038660938e-01
-5.187979657199980332e-01
3.676843406794073621e-01
0.000000000000000000e+00
-4.524532679927140144e-02
0.000000000000000000e+00
4.199704457767942101e-01
2.494021166757224295e-01
0.000000000000000000e+00
1.811681605811450435e-01
5.224586081117532643e-02
0.000000000000000000e+00
0.000000000000000000e+00
0.000000000000000000e+00
