0.000000000000000000e+00 0.000000000000000000e+00 2.305586262704342471e-01 -3.952877274489714071e-02 2.401415278250024765e-01 0.000000000000000000e+00 0.000000000000000000e+00 0.000000000000000000e+00 0.000000000000000000e+00 -2.144258010774514889e-01 0.000000000000000000e+00 0.000000000000000000e+00 -1.571736271177251176e-01 1.683713229319898919e-01 0.000000000000000000e+00 0.000000000000000000e+00 -1.306240505130152885e-01 -7.196460712367659662e-02 5.747118035764855332e-02 0.000000000000000000e+00 -1.384526864911116706e-01 2.051925085098243728e-01 0.000000000000000000e+00 0.000000000000000000e+00 0.000000000000000000e+00 0.000000000000000000e+00 -7.987557467446067261e-02 0.000000000000000000e+00 0.000000000000000000e+00 2.239293146967627213e-01 0.000000000000000000e+00 0.000000000000000000e+00 3.654474102959986287e-02 0.000000000000000000e+00 0.000000000000000000e+00 0.000000000000000000e+00 0.000000000000000000e+00 2.327671489548668593e-01 0.000000000000000000e+00 0.000000000000000000e+00
6.565141854706937896e-02 -1.609097703087854769e-01 0.000000000000000000e+00 0.000000000000000000e+00 0.000000000000000000e+00 0.000000000000000000e+00 -2.492472693672386497e-01 -1.167824494669463496e-02 0.000000000000000000e+00 0.000000000000000000e+00 2.153215639561040576e-02 0.000000000000000000e+00 0.000000000000000000e+00 -2.417418093010328672e-01 4.996762363741657359e-02 0.000000000000000000e+00 1.029351335930419747e-01 4.011769373794753929e-02 -1.564068877574737171e-01 0.000000000000000000e+00 0.000000000000000000e+00 -2.153824223696729767e-01 0.000000000000000000e+00 1.706390030770990884e-01 -5.573143973624632153e-02 -6.420882648188719344e-02 4.555483508282971022e-02 -1.746772291392781618e-01 2.147084591668334819e-01 0.000000000000000000e+00 0.000000000000000000e+00 0.000000000000000000e+00 0.000000000000000000e+00 2.074861182043760410e-01 -1.177470430247611333e-01 0.000000000000000000e+00 0.000000000000000000e+00 0.000000000000000000e+00 0.000000000000000000e+00 1.301375763468006763e-01
0.000000000000000000e+00 5.936114511011918865e-02 0.000000000000000000e+00 0.000000000000000000e+00 0.000000000000000000e+00 -2.479312460216844261e-01 2.956332364879278932e-02 0.000000000000000000e+00 1.353189290250386423e-01 0.000000000000000000e+00 0.000000000000000000e+00 0.000000000000000000e+00 0.000000000000000000e+00 0.000000000000000000e+00 0.000000000000000000e+00 -1.272139596937297557e-01 -1.523878573852623652e-01 0.000000000000000000e+00 0.000000000000000000e+00 0.000000000000000000e+00 -5.400480665795708013e-02 -1.702109597214981063e-01 0.000000000000000000e+00 2.001156268941765015e-01 -1.675080898805168805e-01 0.000000000000000000e+00 6.325932435158380940e-02 -1.622761363172081917e-01 -1.290719061403707846e-01 0.000000000000000000e+00 1.685298646127297295e-01 0.000000000000000000e+00 0.000000000000000000e+00 2.259977226461386823e-01 0.000000000000000000e+00 -6.837398559353762006e-02 0.000000000000000000e+00 1.016585591139821804e-01 -1.294123170481653040e-01 2.539775707792098491e-01
-2.231361626915883689e-01 0.000000000000000000e+00 -2.305964094032503797e-01 0.000000000000000000e+00 0.000000000000000000e+00 2.169354111406076868e-01 3.268695132500560457e-02 0.000000000000000000e+00 -2.107585250607222835e-02 3.743664259885243900e-02 0.000000000000000000e+00 -7.480155082455208770e-02 0.000000000000000000e+00 -1.255688308511656304e-01 0.000000000000000000e+00 0.000000000000000000e+00 1.341402414076964811e-01 3.206485361111503091e-02 0.000000000000000000e+00 -3.187540784742121797e-02 0.000000000000000000e+00 1.613534814622914412e-02 0.000000000000000000e+00 0.000000000000000000e+00 -1.879588367733584786e-01 0.000000000000000000e+00 0.000000000000000000e+00 2.212664248197757089e-01 -2.291319555557847498e-01 -1.931010878473291004e-01 9.146476100986150604e-02 0.000000000000000000e+00 0.000000000000000000e+00 0.000000000000000000e+00 0.000000000000000000e+00 0.000000000000000000e+00 -1.471041887847748253e-01 -1.572722712580698901e-01 1.193607033801023370e-01 3.712142519289834269e-02
-2.061153326491506343e-01 0.000000000000000000e+00 1.654993744930235988e-01 0.000000000000000000e+00 0.000000000000000000e+00 0.000000000000000000e+00 0.000000000000000000e+00 -2.414351932251674326e-01 0.000000000000000000e+00 0.000000000000000000e+00 -1.410067804296750993e-01 0.000000000000000000e+00 0.000000000000000000e+00 0.000000000000000000e+00 0.000000000000000000e+00 0.000000000000000000e+00 0.000000000000000000e+00 2.575743827681500342e-01 0.000000000000000000e+00 2.054100008185129056e-01 -1.429895631314178073e-01 0.000000000000000000e+00 1.514940441670689919e-01 1.779459904753885602e-01 -4.220494555111144186e-02 0.000000000000000000e+00 -1.714432125342665314e-01 2.466420560000673334e-01 1.627875556323820500e-02 1.990716540743222851e-01 0.000000000000000000e+00 2.563782808737805063e-01 -1.785585835351792827e-01 0.000000000000000000e+00 0.000000000000000000e+00 0.000000000000000000e+00 3.311823725056692314e-02 0.000000000000000000e+00 0.000000000000000000e+00 8.431356076831772461e-02
2.008380522721611439e-01 -1.491164841936145902e-01 9.065515578181142231e-02 0.000000000000000000e+00 0.000000000000000000e+00 1.982948710667875869e-01 0.000000000000000000e+00 0.000000000000000000e+00 0.000000000000000000e+00 0.000000000000000000e+00 0.000000000000000000e+00 0.000000000000000000e+00 0.000000000000000000e+00 -1.818664358775133605e-01 0.000000000000000000e+00 0.000000000000000000e+00 0.000000000000000000e+00 1.113964175566375808e-01 0.000000000000000000e+00 -7.972284978713942843e-03 8.602732687816509738e-02 1.503288280509513519e-01 -2.195933166295026828e-01 0.000000000000000000e+00 0.000000000000000000e+00 -1.493611620411095797e-01 2.927857640409540704e-02 0.000000000000000000e+00 0.000000000000000000e+00 -2.284239242120280067e-01 -2.318968927648191458e-01 0.000000000000000000e+00 0.000000000000000000e+00 0.000000000000000000e+00 1.011390629777790123e-01 0.000000000000000000e+00 1.326563556019096923e-01 0.000000000000000000e+00 2.527025060341192009e-01 2.077708788404397308e-02
0.000000000000000000e+00 -1.482635831811927318e-01 3.639988212482736952e-03 0.000000000000000000e+00 1.275381514800893491e-02 -2.151429180617594750e-01 0.000000000000000000e+00 0.000000000000000000e+00 -1.258272225158210862e-02 -2.045584920353185898e-01 0.000000000000000000e+00 0.000000000000000000e+00 -3.107009839432566672e-02 0.000000000000000000e+00 0.000000000000000000e+00 1.325352587987681241e-01 0.000000000000000000e+00 -8.750605131300932815e-02 0.000000000000000000e+00 -2.032131194430548682e-01 0.000000000000000000e+00 0.000000000000000000e+00 9.265275945069252617e-02 0.000000000000000000e+00 2.040196607897026837e-01 0.000000000000000000e+00 -6.272684559943598158e-03 0.000000000000000000e+00 -1.779221887938350899e-01 -1.592847231587486700e-02 -3.702257156565944701e-03 0.000000000000000000e+00 -2.409632624569388315e-01 7.647348639467076159e-02 1.679381516153048426e-01 0.000000000000000000e+00 0.000000000000000000e+00 -1.772615661696534950e-01 -7.707233992637048392e-02 0.000000000000000000e+00
0.000000000000000000e+00 -2.949355915656553737e-02 0.000000000000000000e+00 6.577285766305791164e-04 -1.781455009420616353e-01 -4.196648512938427195e-02 0.000000000000000000e+00 2.563496410855435337e-01 -2.574655416684618059e-01 2.421917908628423710e-01 0.000000000000000000e+00 0.000000000000000000e+00 0.000000000000000000e+00 0.000000000000000000e+00 0.000000000000000000e+00 -1.412349639544280833e-01 0.000000000000000000e+00 0.000000000000000000e+00 0.000000000000000000e+00 0.000000000000000000e+00 -4.476867265185981853e-02 0.000000000000000000e+00 0.000000000000000000e+00 0.000000000000000000e+00 0.000000000000000000e+00 0.000000000000000000e+00 1.363018924560508160e-01 1.525810852627049741e-01 0.000000000000000000e+00 0.000000000000000000e+00 -8.672028721581287805e-03 0.000000000000000000e+00 -1.392165343742050032e-01 0.000000000000000000e+00 -1.978074319443622886e-01 -7.194002411482862402e-02 0.000000000000000000e+00 -1.697843702912159303e-01 0.000000000000000000e+00 0.000000000000000000e+00
-6.573501529433009583e-02 0.000000000000000000e+00 0.000000000000000000e+00 -4.756552598129225318e-02 1.621830682345370631e-02 0.000000000000000000e+00 1.527435334838217196e-01 0.000000000000000000e+00 0.000000000000000000e+00 0.000000000000000000e+00 2.897219455794144624e-02 -2.423208786626937228e-01 -1.746006378857371810e-01 -6.459396164049499567e-02 -1.372473985902775695e-01 -2.259336900178206542e-01 0.000000000000000000e+00 5.585006131367652171e-02 0.000000000000000000e+00 -5.898643801073780168e-02 5.876364454919054403e-02 -1.450315987381638194e-01 0.000000000000000000e+00 0.000000000000000000e+00 -1.261497562818223450e-01 1.508633095298763382e-01 -1.822991866248361570e-01 0.000000000000000000e+00 1.794868155603105142e-01 0.000000000000000000e+00 0.000000000000000000e+00 0.000000000000000000e+00 0.000000000000000000e+00 -5.275441381144319736e-02 0.000000000000000000e+00 0.000000000000000000e+00 3.766091408070751378e-02 9.153616403148411018e-02 1.739481080417380199e-01 -5.522380305375686887e-02
0.000000000000000000e+00 -1.175586285960315974e-01 -1.178198354658150371e-01 1.565054943087805239e-01 0.000000000000000000e+00 0.000000000000000000e+00 8.351197611695050649e-02 0.000000000000000000e+00 -5.931707783670010434e-03 1.428479598728824573e-01 1.748830621881338199e-01 0.000000000000000000e+00 -9.599180364461828985e-02 -7.146088595669411458e-02 7.708753170485449502e-02 -5.435902725893860393e-02 0.000000000000000000e+00 1.738205206175698347e-01 0.000000000000000000e+00 -1.928593209419919019e-01 0.000000000000000000e+00 0.000000000000000000e+00 -1.489448697501979946e-01 0.000000000000000000e+00 8.224206033526394732e-02 1.991172009665914677e-01 0.000000000000000000e+00 0.000000000000000000e+00 0.000000000000000000e+00 2.233626513325667751e-01 -9.407226239579433158e-02 0.000000000000000000e+00 -1.957300116649488275e-01 0.000000000000000000e+00 -2.322210207951458660e-01 0.000000000000000000e+00 -9.875468610507488754e-02 0.000000000000000000e+00 0.000000000000000000e+00 0.000000000000000000e+00
1.569989193846273445e-01 1.232640961537970203e-01 2.230274002327851668e-01 0.000000000000000000e+00 1.441201714521438970e-01 0.000000000000000000e+00 2.212691045194399575e-01 -2.143296000087548114e-02 -2.399250180995744774e-01 1.974327427559344761e-01 2.109727572947892871e-01 0.000000000000000000e+00 2.198868095052819438e-01 -8.151440793710734711e-02 2.084298081982935980e-01 0.000000000000000000e+00 0.000000000000000000e+00 0.000000000000000000e+00 -1.379212121101169586e-01 0.000000000000000000e+00 1.791149074788048468e-01 -1.350128596135779513e-01 -1.666372411406806184e-02 0.000000000000000000e+00 1.224180451978374301e-01 -7.493481194014049718e-02 1.688879477072444957e-01 9.285046669961495927e-03 0.000000000000000000e+00 0.000000000000000000e+00 -1.206884299045460351e-01 0.000000000000000000e+00 0.000000000000000000e+00 -5.266094053514532719e-02 -7.671200788649100433e-02 4.482488583646928454e-02 0.000000000000000000e+00 0.000000000000000000e+00 6.211686982824413811e-02 0.000000000000000000e+00
0.000000000000000000e+00 1.025789841026536059e-01 1.964315356173532146e-01 0.000000000000000000e+00 9.725938599963702968e-02 8.180656669261955616e-02 0.000000000000000000e+00 1.984331714849300043e-01 0.000000000000000000e+00 5.455490034750543928e-03 0.000000000000000000e+00 0.000000000000000000e+00 1.079876977869639459e-01 0.000000000000000000e+00 8.336520589498892797e-02 0.000000000000000000e+00 0.000000000000000000e+00 2.411800877367956120e-01 -5.469259331718153566e-03 0.000000000000000000e+00 -1.450345957813415354e-01 0.000000000000000000e+00 0.000000000000000000e+00 -2.309964702517068036e-01 0.000000000000000000e+00 0.000000000000000000e+00 0.000000000000000000e+00 0.000000000000000000e+00 0.000000000000000000e+00 0.000000000000000000e+00 0.000000000000000000e+00 0.000000000000000000e+00 0.000000000000000000e+00 0.000000000000000000e+00 0.000000000000000000e+00 0.000000000000000000e+00 -3.831423280352522914e-03 0.000000000000000000e+00 -2.410744344647303417e-01 -2.232483801408597091e-01
0.000000000000000000e+00 0.000000000000000000e+00 0.000000000000000000e+00 -2.088622830049725043e-01 0.000000000000000000e+00 0.000000000000000000e+00 1.623844566106726339e-01 0.000000000000000000e+00 -2.545133673020976706e-01 -1.045197039235078174e-01 2.258170045752292132e-01 6.329225205910010699e-02 -7.950312600551974473e-02 0.000000000000000000e+00 0.000000000000000000e+00 0.000000000000000000e+00 0.000000000000000000e+00 1.887637383381273182e-01 0.000000000000000000e+00 -1.737618668368088107e-02 1.899537433195535863e-01 -2.231249565989443795e-01 0.000000000000000000e+00 0.000000000000000000e+00 -2.627585924527680444e-02 0.000000000000000000e+00 -9.940015351676992350e-02 0.000000000000000000e+00 0.000000000000000000e+00 2.117103059054577519e-01 0.000000000000000000e+00 -2.332372510782529731e-02 -1.683470252865018058e-01 0.000000000000000000e+00 2.523633849167087329e-01 4.993729902868750820e-02 -2.420952082197641297e-01 0.000000000000000000e+00 0.000000000000000000e+00 7.826677433189738837e-04
0.000000000000000000e+00 0.000000000000000000e+00 -1.158624906477499772e-01 -2.159200381345923458e-01 0.000000000000000000e+00 0.000000000000000000e+00 1.551871137750374385e-01 0.000000000000000000e+00 0.000000000000000000e+00 -2.542561223342214016e-01 0.000000000000000000e+00 0.000000000000000000e+00 0.000000000000000000e+00 7.009149403134522227e-02 0.000000000000000000e+00 0.000000000000000000e+00 8.154797505293155668e-02 8.341338611312187901e-02 2.460878557943025902e-01 0.000000000000000000e+00 0.000000000000000000e+00 0.000000000000000000e+00 0.000000000000000000e+00 0.000000000000000000e+00 0.000000000000000000e+00 1.201359891205466407e-01 0.000000000000000000e+00 1.211289101245009298e-01 0.000000000000000000e+00 -1.497303515929686822e-02 0.000000000000000000e+00 -7.459784173700730048e-02 7.031524318983262134e-02 0.000000000000000000e+00 0.000000000000000000e+00 0.000000000000000000e+00 2.442937987577814274e-01 0.000000000000000000e+00 -1.193304726950462497e-01 0.000000000000000000e+00
-1.751893335633768756e-01 -5.311134242762430985e-02 -1.794054518542776699e-01 3.412308644737565427e-02 0.000000000000000000e+00 0.000000000000000000e+00 1.720284753958646051e-01 0.000000000000000000e+00 1.538014240500591434e-01 0.000000000000000000e+00 -4.579008548618711261e-02 0.000000000000000000e+00 -1.710758096904447523e-01 8.907827590671725526e-02 0.000000000000000000e+00 -1.356384578261028984e-01 0.000000000000000000e+00 0.000000000000000000e+00 -4.805189814034483559e-02 0.000000000000000000e+00 0.000000000000000000e+00 0.000000000000000000e+00 -1.232045426707065183e-01 9.480243730625874388e-02 0.000000000000000000e+00 0.000000000000000000e+00 0.000000000000000000e+00 0.000000000000000000e+00 0.000000000000000000e+00 0.000000000000000000e+00 0.000000000000000000e+00 0.000000000000000000e+00 2.362078747152087099e-01 0.000000000000000000e+00 1.107278343774367180e-01 0.000000000000000000e+00 6.393422254626195123e-02 0.000000000000000000e+00 -2.375549320468023917e-01 0.000000000000000000e+00
1.636570306566813293e-01 1.323713234534981409e-01 0.000000000000000000e+00 -1.216507888250732694e-01 1.817751659779937856e-01 1.727004091925728457e-01 -7.086483771239716900e-02 0.000000000000000000e+00 2.105908424932764200e-01 0.000000000000000000e+00 1.733039234061282408e-01 0.000000000000000000e+00 0.000000000000000000e+00 0.000000000000000000e+00 0.000000000000000000e+00 1.574823952968705532e-01 0.000000000000000000e+00 0.000000000000000000e+00 8.830807093463988178e-02 0.000000000000000000e+00 6.826161107287942453e-02 0.000000000000000000e+00 0.000000000000000000e+00 0.000000000000000000e+00 0.000000000000000000e+00 7.957948909869161369e-02 -1.772641755200856928e-01 0.000000000000000000e+00 -1.749552573402382016e-01 -1.274275568842023476e-01 0.000000000000000000e+00 0.000000000000000000e+00 0.000000000000000000e+00 0.000000000000000000e+00 -1.632187439835160458e-01 -9.596669961809080329e-02 0.000000000000000000e+00 1.636041630638348787e-01 0.000000000000000000e+00 1.879035555082881614e-01
2.536583864895205487e-01 0.000000000000000000e+00 2.422964032475115048e-01 0.000000000000000000e+00 0.000000000000000000e+00 -1.147402940461157428e-01 0.000000000000000000e+00 -1.843879324672676942e-02 0.000000000000000000e+00 -6.566045395972966610e-03 4.089492497484718131e-02 0.000000000000000000e+00 2.529965611501153733e-01 -9.596536946449460426e-02 0.000000000000000000e+00 2.429277005767671582e-01 0.000000000000000000e+00 -1.381727302990661266e-01 0.000000000000000000e+00 -1.443119623715177491e-01 0.000000000000000000e+00 3.391728978544977097e-02 -2.422807301194529472e-01 1.955100295656279907e-01 0.000000000000000000e+00 0.000000000000000000e+00 1.960469191358412550e-02 0.000000000000000000e+00 0.000000000000000000e+00 0.000000000000000000e+00 1.753613802938821242e-01 2.389108360487195437e-01 1.433511683054724539e-01 0.000000000000000000e+00 -3.738833714003535896e-02 1.462968229954008659e-01 0.000000000000000000e+00 0.000000000000000000e+00 -1.959860019100939932e-01 0.000000000000000000e+00
6.380253672055845315e-02 0.000000000000000000e+00 1.160142278754419387e-01 1.884857436812062692e-01 0.000000000000000000e+00 0.000000000000000000e+00 0.000000000000000000e+00 -6.042952738700552856e-02 0.000000000000000000e+00 9.749451442021211944e-02 -5.809705804862359824e-02 -1.175857318432282916e-01 1.453799363101288822e-01 -2.371477564043599495e-01 1.853322178978737559e-04 0.000000000000000000e+00 0.000000000000000000e+00 0.000000000000000000e+00 1.725068431654749046e-01 -2.575000853893920708e-02 0.000000000000000000e+00 4.002731031543901169e-02 1.867536157880567704e-01 6.693616116617810696e-02 0.000000000000000000e+00 0.000000000000000000e+00 0.000000000000000000e+00 0.000000000000000000e+00 0.000000000000000000e+00 0.000000000000000000e+00 -2.377258022383010039e-01 8.096568903902645609e-02 2.051690691692579505e-01 0.000000000000000000e+00 0.000000000000000000e+00 0.000000000000000000e+00 0.000000000000000000e+00 9.850930677354018117e-02 -8.113292818090203640e-02 -1.104902209144009717e-01
0.000000000000000000e+00 0.000000000000000000e+00 -7.691839317824092359e-02 0.000000000000000000e+00 0.000000000000000000e+00 0.000000000000000000e+00 0.000000000000000000e+00 -1.142742893689109307e-01 -2.519747902582915589e-01 0.000000000000000000e+00 0.000000000000000000e+00 0.000000000000000000e+00 0.000000000000000000e+00 1.158039696498487509e-01 0.000000000000000000e+00 0.000000000000000000e+00 0.000000000000000000e+00 8.219925504132372107e-02 7.947158925986452793e-02 0.000000000000000000e+00 0.000000000000000000e+00 0.000000000000000000e+00 0.000000000000000000e+00 -1.332856701440549296e-01 1.852830152519728199e-02 1.845985407617477536e-01 0.000000000000000000e+00 0.000000000000000000e+00 0.000000000000000000e+00 0.000000000000000000e+00 2.496515605918924255e-02 -8.380936475401226660e-02 0.000000000000000000e+00 0.000000000000000000e+00 1.830263318778994341e-01 0.000000000000000000e+00 -1.528908969437395571e-01 0.000000000000000000e+00 6.162829038298135720e-02 1.668619085352753273e-01
4.160884069803693491e-02 -2.377045057085871160e-01 0.000000000000000000e+00 3.674224507076509494e-02 -5.058743717766481934e-02 0.000000000000000000e+00 0.000000000000000000e+00 0.000000000000000000e+00 1.292980514408001436e-01 0.000000000000000000e+00 0.000000000000000000e+00 0.000000000000000000e+00 1.152086396427134812e-01 0.000000000000000000e+00 7.267678771364142337e-03 0.000000000000000000e+00 0.000000000000000000e+00 -6.200069994184329719e-02 1.666812415858038576e-01 0.000000000000000000e+00 0.000000000000000000e+00 1.677858999759903325e-01 1.193554935332161171e-01 0.000000000000000000e+00 0.000000000000000000e+00 5.120065431032740089e-02 -4.573210361961728421e-02 -1.486819339489286462e-01 -5.405843882371885040e-02 0.000000000000000000e+00 -2.255436960200936647e-01 4.803283106784937001e-02 0.000000000000000000e+00 0.000000000000000000e+00 -2.181154658284545356e-01 0.000000000000000000e+00 0.000000000000000000e+00 2.413370104182079867e-01 0.000000000000000000e+00 -8.938564661259679189e-02
3.954813010403857715e-02 -1.702896294094756457e-01 0.000000000000000000e+00 0.000000000000000000e+00 -1.857121169918174441e-02 -3.545615136859200933e-02 2.071566442509403527e-01 1.481703800452978947e-01 0.000000000000000000e+00 1.343540692759291610e-01 0.000000000000000000e+00 -2.430291020356614706e-01 0.000000000000000000e+00 -2.494494294211517804e-01 -2.236873397852219558e-01 0.000000000000000000e+00 0.000000000000000000e+00 0.000000000000000000e+00 0.000000000000000000e+00 0.000000000000000000e+00 0.000000000000000000e+00 0.000000000000000000e+00 -1.209111934824666362e-01 0.000000000000000000e+00 0.000000000000000000e+00 1.333948785653163160e-01 -2.747424904589068975e-02 -3.411039530778696427e-02 -2.317012400810553319e-01 -1.737085367924715365e-02 4.173840979505854393e-02 -1.441093618684569089e-01 0.000000000000000000e+00 0.000000000000000000e+00 1.681205380650737935e-01 0.000000000000000000e+00 -2.039451752904073156e-01 -1.213553254618741917e-01 8.348345689971226058e-02 0.000000000000000000e+00
0.000000000000000000e+00 1.245915084541609208e-01 0.000000000000000000e+00 0.000000000000000000e+00 -2.371066420544481745e-01 0.000000000000000000e+00 0.000000000000000000e+00 2.528177219151371835e-01 2.407652090921116872e-02 0.000000000000000000e+00 -1.696667922172462317e-01 -2.169201519780819196e-02 0.000000000000000000e+00 0.000000000000000000e+00 0.000000000000000000e+00 1.576278971175685550e-01 0.000000000000000000e+00 0.000000000000000000e+00 -4.144051253798468337e-02 0.000000000000000000e+00 0.000000000000000000e+00 0.000000000000000000e+00 5.337995642893943876e-02 0.000000000000000000e+00 0.000000000000000000e+00 0.000000000000000000e+00 2.219155198652290606e-01 -2.372302568198841541e-02 0.000000000000000000e+00 1.543751231958230899e-02 1.368226417294363673e-01 1.419171725322193878e-01 2.278904546861048805e-02 1.566482579389983087e-01 -2.047762921504835409e-01 -1.337831773190554518e-01 2.084898677022239688e-01 -2.302959462724320783e-01 -1.452935664572314045e-01 -5.511614544538646215e-02
0.000000000000000000e+00 -1.128918142804081759e-01 0.000000000000000000e+00 0.000000000000000000e+00 0.000000000000000000e+00 0.000000000000000000e+00 0.000000000000000000e+00 0.000000000000000000e+00 0.000000000000000000e+00 0.000000000000000000e+00 8.655350958198931854e-02 -2.398018666866893744e-01 -1.181030593979701948e-01 3.492053470325167525e-02 2.245379343508988879e-01 7.296039913177795877e-02 1.336924783490934521e-01 0.000000000000000000e+00 5.009374855051999115e-02 2.840343664014127485e-03 -2.455785999776015360e-01 -1.085660072927304570e-01 0.000000000000000000e+00 0.000000000000000000e+00 1.622459012959639457e-01 0.000000000000000000e+00 0.000000000000000000e+00 -2.122307243561634971e-01 1.668251025267855070e-01 -1.075237678057419377e-01 -1.835147099328815756e-01 0.000000000000000000e+00 8.183558688721924435e-02 0.000000000000000000e+00 2.239957888406582942e-01 -2.086338780661921022e-01 0.000000000000000000e+00 -1.441394005904422793e-01 0.000000000000000000e+00 -6.724817745999042695e-02
8.081048500717506744e-02 0.000000000000000000e+00 0.000000000000000000e+00 -9.008100735205402942e-02 0.000000000000000000e+00 1.743543506504868501e-01 0.000000000000000000e+00 0.000000000000000000e+00 -8.578200871218111256e-02 -8.045617615162470315e-02 0.000000000000000000e+00 1.743932510232586164e-01 0.000000000000000000e+00 0.000000000000000000e+00 0.000000000000000000e+00 0.000000000000000000e+00 -8.255159678245064039e-03 0.000000000000000000e+00 0.000000000000000000e+00 -1.455720626770383441e-01 1.063415250586961236e-01 0.000000000000000000e+00 0.000000000000000000e+00 8.888194846392469262e-02 2.207727734283030097e-01 0.000000000000000000e+00 -4.245129760966503268e-02 4.292533860323344275e-02 0.000000000000000000e+00 -1.737489847499788242e-01 8.971226041909742543e-02 -9.048256979888809337e-02 1.352445096226054244e-01 0.000000000000000000e+00 0.000000000000000000e+00 -7.862005114775320880e-02 0.000000000000000000e+00 0.000000000000000000e+00 -1.469924316501577954e-01 0.000000000000000000e+00
0.000000000000000000e+00 0.000000000000000000e+00 0.000000000000000000e+00 2.450892327599043241e-01 -5.031980762072774116e-02 -2.285777264787433039e-01 0.000000000000000000e+00 0.000000000000000000e+00 4.063314611965476719e-02 -9.124796172220867030e-02 7.463135453264330144e-02 0.000000000000000000e+00 0.000000000000000000e+00 -2.223733265122034009e-01 -1.907322067558025191e-01 1.554269091307921846e-01 1.226886664067821653e-01 1.251521074767667548e-03 2.518322412657931775e-01 0.000000000000000000e+00 -3.809224922428914445e-02 0.000000000000000000e+00 0.000000000000000000e+00 2.555498119220648845e-01 -6.627210486318892146e-02 0.000000000000000000e+00 0.000000000000000000e+00 0.000000000000000000e+00 0.000000000000000000e+00 0.000000000000000000e+00 0.000000000000000000e+00 0.000000000000000000e+00 0.000000000000000000e+00 2.558213108828025217e-01 0.000000000000000000e+00 0.000000000000000000e+00 2.006362511768788603e-01 2.261080903539102460e-01 -1.802181979583044047e-01 1.590154997527364333e-01
0.000000000000000000e+00 0.000000000000000000e+00 -2.211764986599976945e-01 1.838471613750600892e-02 -2.503872895460840242e-01 -8.538355795851491903e-02 -1.437306846343519851e-01 -8.141007902637881211e-02 1.945637299165945966e-01 0.000000000000000000e+00 2.413424600522682262e-01 0.000000000000000000e+00 -1.323059188281850707e-01 0.000000000000000000e+00 0.000000000000000000e+00 1.069349024624423189e-01 0.000000000000000000e+00 -7.259265518103316661e-02 0.000000000000000000e+00 0.000000000000000000e+00 1.295081541040211115e-01 0.000000000000000000e+00 0.000000000000000000e+00 0.000000000000000000e+00 0.000000000000000000e+00 -1.195304241119970468e-01 -1.239148849387302354e-01 4.890377042215972997e-02 0.000000000000000000e+00 0.000000000000000000e+00 0.000000000000000000e+00 3.434199560943792390e-02 2.010412342683087494e-01 1.374164564676206013e-01 0.000000000000000000e+00 1.871629326816383887e-01 0.000000000000000000e+00 0.000000000000000000e+00 4.786884885342645307e-02 -2.313550749811888740e-01
0.000000000000000000e+00 -1.332835341292314957e-01 1.427063626935102733e-02 0.000000000000000000e+00 -1.640763646060292569e-01 0.000000000000000000e+00 0.000000000000000000e+00 0.000000000000000000e+00 0.000000000000000000e+00 0.000000000000000000e+00 -2.361907434157620722e-01 -1.141327138358821658e-01 -9.980417856024394185e-02 0.000000000000000000e+00 -1.488902729103970257e-01 -2.511299233709480411e-02 0.000000000000000000e+00 -9.012195776584429330e-02 1.057707417143649992e-01 0.000000000000000000e+00 -8.930549251983675718e-02 0.000000000000000000e+00 0.000000000000000000e+00 0.000000000000000000e+00 -8.958432534969969219e-02 0.000000000000000000e+00 0.000000000000000000e+00 2.480667345362938814e-01 9.012066795120250717e-02 -1.220708202327003972e-01 0.000000000000000000e+00 0.000000000000000000e+00 -4.269547634555676680e-02 2.303496937904930542e-01 2.172282034843123488e-01 -2.142001126614191675e-01 -1.580662289916240637e-01 0.000000000000000000e+00 -1.715123329022582577e-01 4.016103674262900408e-02
0.000000000000000000e+00 0.000000000000000000e+00 3.269366128877179700e-02 -2.148855743841644045e-02 0.000000000000000000e+00 -1.238337808140892171e-01 0.000000000000000000e+00 -5.563707684753660399e-02 0.000000000000000000e+00 -5.349677856845997531e-03 0.000000000000000000e+00 0.000000000000000000e+00 0.000000000000000000e+00 -6.524569927473780617e-02 0.000000000000000000e+00 0.000000000000000000e+00 0.000000000000000000e+00 -1.282983365243721696e-01 3.045125471566030931e-02 -4.990655195286477358e-02 0.000000000000000000e+00 1.115754039678471671e-01 -1.854504286899133492e-01 -1.784508933491676386e-01 0.000000000000000000e+00 -2.369973504385139984e-01 0.000000000000000000e+00 0.000000000000000000e+00 -6.788081722288485942e-02 -1.870880052342886180e-01 0.000000000000000000e+00 2.048837740830913301e-01 -1.808486802407483218e-01 0.000000000000000000e+00 0.000000000000000000e+00 -3.848794028409338683e-03 0.000000000000000000e+00 7.663896942419091973e-02 0.000000000000000000e+00 1.575940114085631338e-01
1.855118851833970350e-01 -1.635303840900061978e-01 0.000000000000000000e+00 0.000000000000000000e+00 1.231608211145442944e-01 1.288897693361244767e-01 0.000000000000000000e+00 5.509081022039698239e-02 5.815808169525794186e-02 -1.535191934268758940e-01 -2.526573273202406544e-01 -2.524996969731881369e-01 0.000000000000000000e+00 -1.976916325613512215e-01 1.928732266425836894e-01 0.000000000000000000e+00 -9.220966437041619446e-02 0.000000000000000000e+00 0.000000000000000000e+00 -1.353573336332730137e-01 1.460698186106928198e-01 -6.590809163148145244e-02 0.000000000000000000e+00 0.000000000000000000e+00 1.535122038216977514e-01 1.770206428220875983e-01 0.000000000000000000e+00 -5.783741390501925123e-02 5.080775276281085731e-03 8.824962616946828431e-02 0.000000000000000000e+00 -7.481546049834988943e-02 -1.500104027063110801e-01 2.140073334747960021e-01 0.000000000000000000e+00 -2.234813354914294281e-01 8.064555269303100293e-02 0.000000000000000000e+00 8.821646437545095643e-02 -1.840703583990170311e-01
0.000000000000000000e+00 1.406422713529902890e-01 2.376526707087522061e-01 -1.034389087679996044e-01 0.000000000000000000e+00 -1.538934207372070206e-01 0.000000000000000000e+00 1.308956188305601953e-01 -1.149734275701281838e-01 0.000000000000000000e+00 4.289358351244795808e-02 1.562293427850208472e-01 6.322889987419186286e-02 0.000000000000000000e+00 -2.445155026003638377e-01 0.000000000000000000e+00 0.000000000000000000e+00 -1.646375102073610944e-02 -6.468353619298566892e-02 -2.139226615464260017e-01 1.716601814690008054e-01 0.000000000000000000e+00 0.000000000000000000e+00 9.148793298316307276e-02 0.000000000000000000e+00 3.812891080365100188e-02 0.000000000000000000e+00 1.574812164931789493e-01 0.000000000000000000e+00 -2.462395355426314769e-01 3.830303521835822650e-02 1.561307915489515696e-01 0.000000000000000000e+00 1.643440133913314782e-01 0.000000000000000000e+00 0.000000000000000000e+00 1.653525010787551819e-01 0.000000000000000000e+00 0.000000000000000000e+00 0.000000000000000000e+00
0.000000000000000000e+00 8.621549475420514641e-02 0.000000000000000000e+00 1.290382457424156248e-01 0.000000000000000000e+00 0.000000000000000000e+00 3.504787847603425821e-02 1.672990934361360815e-01 1.662213212744475255e-01 0.000000000000000000e+00 0.000000000000000000e+00 0.000000000000000000e+00 0.000000000000000000e+00 0.000000000000000000e+00 0.000000000000000000e+00 0.000000000000000000e+00 -1.100715594222283489e-01 -1.820487743660794411e-01 2.104845953154022842e-01 -1.673180960607484058e-01 -9.653257983208297921e-02 2.263858446211633735e-01 0.000000000000000000e+00 0.000000000000000000e+00 6.425160961085198130e-02 2.447527812853189932e-01 0.000000000000000000e+00 0.000000000000000000e+00 0.000000000000000000e+00 0.000000000000000000e+00 0.000000000000000000e+00 0.000000000000000000e+00 -2.187712853498937349e-01 0.000000000000000000e+00 0.000000000000000000e+00 0.000000000000000000e+00 0.000000000000000000e+00 0.000000000000000000e+00 -1.965954458120229842e-01 -2.404387154091063572e-01
0.000000000000000000e+00 -2.232705128540408146e-01 2.493296048369282036e-01 6.621730598561002823e-02 -2.449269226186709947e-01 0.000000000000000000e+00 0.000000000000000000e+00 -2.311353920638163986e-02 1.955845051191419104e-01 -2.094507998464958387e-01 0.000000000000000000e+00 -8.856384657274313232e-02 5.766061816282191249e-02 1.298019743428705242e-01 1.406619435478384805e-01 0.000000000000000000e+00 0.000000000000000000e+00 -8.859149479098847590e-02 -1.188408054147969406e-01 0.000000000000000000e+00 0.000000000000000000e+00 -4.166970246112366300e-02 -1.397931309030446267e-01 -1.626050396487170868e-01 8.338293973461792519e-02 0.000000000000000000e+00 0.000000000000000000e+00 2.572314585000889942e-01 2.277385377041131753e-01 0.000000000000000000e+00 0.000000000000000000e+00 0.000000000000000000e+00 1.076405877418338403e-01 0.000000000000000000e+00 0.000000000000000000e+00 2.571247364026014656e-02 -1.595230756364350855e-01 -6.136147842268042940e-02 0.000000000000000000e+00 1.109066898888420166e-01
-1.772046423497433409e-01 0.000000000000000000e+00 0.000000000000000000e+00 -9.699587836174970723e-02 -2.141367119390744367e-01 0.000000000000000000e+00 0.000000000000000000e+00 0.000000000000000000e+00 0.000000000000000000e+00 0.000000000000000000e+00 2.477833164372115760e-01 -3.430204053188239122e-02 8.224452853031546939e-02 0.000000000000000000e+00 -1.769490391735189239e-01 0.000000000000000000e+00 0.000000000000000000e+00 0.000000000000000000e+00 0.000000000000000000e+00 0.000000000000000000e+00 0.000000000000000000e+00 0.000000000000000000e+00 0.000000000000000000e+00 0.000000000000000000e+00 8.335642577796656405e-02 9.203545227699413966e-02 2.102835224021513683e-01 0.000000000000000000e+00 0.000000000000000000e+00 1.774775499404535606e-01 0.000000000000000000e+00 0.000000000000000000e+00 0.000000000000000000e+00 0.000000000000000000e+00 -3.488261488654902098e-02 1.713682584129848085e-01 0.000000000000000000e+00 -1.565277295961054194e-01 0.000000000000000000e+00 0.000000000000000000e+00
5.656052622368521604e-02 0.000000000000000000e+00 -5.949509073659479952e-02 0.000000000000000000e+00 0.000000000000000000e+00 -2.534900780490831340e-01 0.000000000000000000e+00 -3.611419208519364016e-02 0.000000000000000000e+00 -2.370452108675190628e-01 -1.421426925896867866e-01 0.000000000000000000e+00 0.000000000000000000e+00 0.000000000000000000e+00 0.000000000000000000e+00 -1.620375573752818321e-01 0.000000000000000000e+00 1.581179936491649007e-01 -3.609996430857038974e-02 0.000000000000000000e+00 -5.702335164560807385e-02 1.911187577629706591e-01 0.000000000000000000e+00 0.000000000000000000e+00 -2.256317477301981456e-01 -1.167121020730990388e-01 -1.966291301580730122e-01 -3.688745291722208414e-02 2.379476882870214249e-01 1.990678764954286473e-01 0.000000000000000000e+00 0.000000000000000000e+00 0.000000000000000000e+00 4.913882768164541670e-02 -6.541859535836294648e-02 -2.975359472211194789e-02 0.000000000000000000e+00 0.000000000000000000e+00 9.900193794069661601e-02 1.177491238069859059e-01
2.067373889936030829e-01 0.000000000000000000e+00 9.918119648735489180e-02 2.260835345386259521e-01 0.000000000000000000e+00 0.000000000000000000e+00 1.659376021689654424e-01 1.757741900304441718e-01 0.000000000000000000e+00 0.000000000000000000e+00 0.000000000000000000e+00 -1.049990054471284934e-01 -1.018734614606620903e-01 0.000000000000000000e+00 4.316313320546222299e-02 4.954032367959878419e-02 -1.273408204568636792e-01 0.000000000000000000e+00 1.439066517283775493e-01 -8.251128576497505918e-02 -2.101808953809864711e-01 -1.730341422932222539e-01 -1.239635527146719929e-01 -1.593597567652878799e-01 -2.182024076708695970e-01 1.016441808297548766e-01 2.440783820391262959e-01 -4.579062281095727660e-02 0.000000000000000000e+00 -2.374918119820570994e-01 -1.717318895156955474e-02 0.000000000000000000e+00 0.000000000000000000e+00 0.000000000000000000e+00 0.000000000000000000e+00 1.911287714962185136e-01 0.000000000000000000e+00 -2.479257715589597566e-01 0.000000000000000000e+00 1.880199146312073744e-01
1.003578255769971145e-01 0.000000000000000000e+00 0.000000000000000000e+00 0.000000000000000000e+00 0.000000000000000000e+00 0.000000000000000000e+00 1.344962155954654848e-01 -9.978837767409633186e-02 0.000000000000000000e+00 1.778173451324817356e-01 -2.171008928265074911e-01 0.000000000000000000e+00 0.000000000000000000e+00 2.012970469082475955e-01 0.000000000000000000e+00 -8.493092335280505445e-02 0.000000000000000000e+00 0.000000000000000000e+00 8.924714500724978405e-02 8.200458741876294477e-02 0.000000000000000000e+00 0.000000000000000000e+00 -2.147365806624914886e-01 0.000000000000000000e+00 0.000000000000000000e+00 9.842070719858334038e-02 -2.235336189272049412e-01 6.982030135799294213e-02 2.612228498032766189e-02 0.000000000000000000e+00 -1.804126303577777493e-02 0.000000000000000000e+00 0.000000000000000000e+00 -2.318419720058112199e-01 0.000000000000000000e+00 -1.125998314010748652e-01 0.000000000000000000e+00 0.000000000000000000e+00 0.000000000000000000e+00 0.000000000000000000e+00
-5.711330782783131249e-02 0.000000000000000000e+00 -1.610118472456371352e-01 0.000000000000000000e+00 2.715292153340455664e-02 -1.395403223329200748e-01 0.000000000000000000e+00 2.225118138716818128e-01 1.777114199570896114e-01 0.000000000000000000e+00 0.000000000000000000e+00 0.000000000000000000e+00 0.000000000000000000e+00 0.000000000000000000e+00 -2.083865677470116834e-02 -6.572246433441746027e-02 0.000000000000000000e+00 -3.874727111173263683e-02 1.657094038674297165e-01 0.000000000000000000e+00 0.000000000000000000e+00 0.000000000000000000e+00 1.279648327771238658e-01 0.000000000000000000e+00 0.000000000000000000e+00 0.000000000000000000e+00 -1.771222768984151708e-01 -2.522281857928168614e-01 -4.990506853159015072e-02 -1.369314529852479756e-01 -9.212776746587079263e-03 0.000000000000000000e+00 -2.002645393072576274e-01 1.249069221842035449e-01 0.000000000000000000e+00 1.389291609941418482e-01 0.000000000000000000e+00 0.000000000000000000e+00 -1.385014510528336795e-01 -1.182570996179125589e-01
-1.031508423546900477e-01 -8.228457826460916502e-02 0.000000000000000000e+00 -1.344634581397658249e-02 0.000000000000000000e+00 0.000000000000000000e+00 -2.317266946914566805e-01 0.000000000000000000e+00 0.000000000000000000e+00 0.000000000000000000e+00 0.000000000000000000e+00 2.941036621795450196e-02 -5.145103616383196049e-02 0.000000000000000000e+00 9.695720430394373646e-02 0.000000000000000000e+00 2.202271004200292148e-01 -1.849868869324133580e-01 -2.129359319201719336e-01 -2.057376298646909907e-01 -8.075057847652623855e-02 0.000000000000000000e+00 -1.643834527633587228e-01 -2.984989464072675819e-02 0.000000000000000000e+00 -1.653256014283937536e-01 3.128602414622073252e-02 2.039541294041298247e-01 2.395425019385779772e-02 -1.738666069083134869e-01 2.210040036497843696e-01 0.000000000000000000e+00 0.000000000000000000e+00 -5.180860363360050708e-02 -1.688482826268448422e-01 3.962803971918201634e-02 0.000000000000000000e+00 1.566432799235547291e-01 0.000000000000000000e+00 4.909220060518501572e-02
1.687585811383156276e-01 0.000000000000000000e+00 1.807579326275753073e-01 5.282343082247743793e-02 -1.158877719994515498e-01 -1.093364132270436689e-01 0.000000000000000000e+00 1.148446689517140795e-01 0.000000000000000000e+00 0.000000000000000000e+00 1.634332890633500568e-01 -1.393026549092004074e-01 1.672366689718366717e-01 0.000000000000000000e+00 2.439206991131231406e-01 0.000000000000000000e+00 0.000000000000000000e+00 2.236433132322973028e-01 -1.909393209019232540e-01 1.593340927203998614e-01 2.637832532120007456e-02 1.641584963347839377e-01 0.000000000000000000e+00 0.000000000000000000e+00 0.000000000000000000e+00 0.000000000000000000e+00 6.155804918669938869e-02 1.972497340954783573e-01 2.565795717238063545e-01 0.000000000000000000e+00 -6.236731435563629827e-02 0.000000000000000000e+00 0.000000000000000000e+00 0.000000000000000000e+00 -1.061798186206802247e-01 -2.225090466845586201e-01 1.301739034334170875e-01 -7.163054714354914754e-02 -4.720074770373097056e-02 -1.928351744006199242e-01
0.000000000000000000e+00 -7.151189315698986554e-03 1.569573705243492434e-01 0.000000000000000000e+00 -2.550627792132547089e-01 -1.507933164709953089e-01 1.664984838088219912e-02 0.000000000000000000e+00 0.000000000000000000e+00 -1.492640306538935147e-01 0.000000000000000000e+00 0.000000000000000000e+00 0.000000000000000000e+00 0.000000000000000000e+00 -2.216543351618465441e-01 0.000000000000000000e+00 0.000000000000000000e+00 0.000000000000000000e+00 0.000000000000000000e+00 8.649817739541357242e-02 0.000000000000000000e+00 0.000000000000000000e+00 -8.239070574025886967e-03 0.000000000000000000e+00 0.000000000000000000e+00 0.000000000000000000e+00 -1.014267519379663668e-01 -3.542117451358256508e-02 0.000000000000000000e+00 0.000000000000000000e+00 0.000000000000000000e+00 1.560428177723181820e-01 -7.685265847646557263e-03 -4.578700686729919589e-02 0.000000000000000000e+00 0.000000000000000000e+00 0.000000000000000000e+00 0.000000000000000000e+00 0.000000000000000000e+00 0.000000000000000000e+00
