-1.408931350857309139e+00 3.754701508044432090e-02 1.538176721968248062e+00 2.921633607220906481e-01 7.098785057569230172e-01 1.228500354397128458e-01 1.711308608584270141e+00 6.842126202909195598e-01 -1.771456129966327842e-01 -5.337674444387970896e-01 -8.935285921360038852e-01 -1.271012320960535624e-01 -1.542395405623881444e-01 4.586906404753672839e-01 7.165745275361372624e-01 -4.624007639871745567e-01 -4.858192424582394309e-01 6.495202798524669641e-01 2.671897806704521261e-01 9.340579023769426392e-01 -3.200699658341985693e-02 -2.632087424079606608e-01 -8.604822179224019818e-01 -6.462622194492056993e-01 1.757761563971233232e-01 -1.042126015237405667e-01 6.402344008435982836e-01 5.000185056342614232e-01 3.256145826385587472e-01 3.537751726126230345e-01 -2.085327091858033555e-01 1.174430103871762832e+00 1.258789996554969814e+00 1.637852929024460558e+00 4.925412728944915108e-01 4.230179244650701387e-01 5.249924432042045730e-01 9.141332121760153973e-01 2.379488291143474002e-02 1.613879786932984839e+00
